TRT-100001-EntropyCalibration2
images: 3b66eddc
/model.0/conv/Conv_output_0: 3d5de528
/model.0/act/Sigmoid_output_0: 3c010a14
/model.0/act/Mul_output_0: 3d5de528
/model.1/conv/Conv_output_0: 3e2939c1
/model.1/act/Sigmoid_output_0: 3c010a14
/model.1/act/Mul_output_0: 3e2fca37
/model.2/cv1/conv/Conv_output_0: 3e604d34
/model.2/cv1/act/Sigmoid_output_0: 3c010a14
/model.2/cv1/act/Mul_output_0: 3d2a7c20
/model.22/Add_8_output_0: 3e810a14
/model.22/Squeeze_2_output_0_output: 3e810a14
/model.22/Unsqueeze_3_output_0: 3f204a85
/model.22/ConstantOfShape_2_output_0: 0
/model.22/Div_1_output_0: 3f209c00
/model.22/Range_3_output_0: 3e9d4449
/model.2/Split_output_0: 3d2a7c20
/model.22/Squeeze_output_0_output: 3d810a14
ONNXTRT_ShapeShuffle_342_output: 0
ONNXTRT_Broadcast_345_output: 3e810a14
/model.2/Split_output_1: 3d0de7ea
/model.2/m.0/cv1/conv/Conv_output_0: 3d86fcd3
/model.2/m.0/cv1/act/Sigmoid_output_0: 3c010a14
/model.2/m.0/cv1/act/Mul_output_0: 3d2b5ef4
/model.2/m.0/cv2/conv/Conv_output_0: 3d1d3504
/model.2/m.0/cv2/act/Sigmoid_output_0: 3c010a14
/model.2/m.0/cv2/act/Mul_output_0: 3d1c1693
/model.2/m.0/Add_output_0: 3d83745b
/model.2/Concat_output_0: 3d83ea44
/model.2/cv2/conv/Conv_output_0: 3d015d49
/model.2/cv2/act/Sigmoid_output_0: 3c000810
/model.2/cv2/act/Mul_output_0: 3cafe949
/model.3/conv/Conv_output_0: 3cc4a05f
/model.3/act/Sigmoid_output_0: 3c0cc851
/model.3/act/Mul_output_0: 3cbb441f
/model.4/cv1/conv/Conv_output_0: 3ca402e7
/model.4/cv1/act/Sigmoid_output_0: 3c012e37
/model.4/cv1/act/Mul_output_0: 3c49fc3d
/model.22/Add_4_output_0: 3e9f4871
/model.22/Mul_5_output_0: 40a083b1
ONNXTRT_ShapeShuffle_186_output: 0
/model.22/Concat_20_output_0: 3e1d4449
/model.22/Concat_24_output_0: 3f209c00
/model.22/Reshape_6_output_0: 3f204a85
/model.4/Split_output_0: 3c31173c
/model.22/Slice_1_output_0: 3dd73877
ONNXTRT_Broadcast_279_output: 3b810a14
ONNXTRT_Broadcast_213_output: 3b810a14
/model.4/Split_output_1: 3c4a3c9d
/model.4/m.0/cv1/conv/Conv_output_0: 3cab6b81
/model.4/m.0/cv1/act/Sigmoid_output_0: 3bee6b1f
/model.4/m.0/cv1/act/Mul_output_0: 3c7ed38c
/model.4/m.0/cv2/conv/Conv_output_0: 3cff85ee
/model.4/m.0/cv2/act/Sigmoid_output_0: 3c01983b
/model.4/m.0/cv2/act/Mul_output_0: 3cbf3e89
/model.4/m.0/Add_output_0: 3ce626fc
/model.4/m.1/cv1/conv/Conv_output_0: 3d0878ea
/model.4/m.1/cv1/act/Sigmoid_output_0: 3bd4592b
/model.4/m.1/cv1/act/Mul_output_0: 3c207a2e
/model.4/m.1/cv2/conv/Conv_output_0: 3d217e88
/model.4/m.1/cv2/act/Sigmoid_output_0: 3c06fdf8
/model.4/m.1/cv2/act/Mul_output_0: 3d125871
/model.4/m.1/Add_output_0: 3d59f1ad
/model.4/Concat_output_0: 3d20e4ac
/model.4/cv2/conv/Conv_output_0: 3ccb7a6c
/model.4/cv2/act/Sigmoid_output_0: 3c0695a1
/model.4/cv2/act/Mul_output_0: 3ca39c08
/model.5/conv/Conv_output_0: 3d54f173
/model.5/act/Sigmoid_output_0: 3c013425
/model.5/act/Mul_output_0: 3cbdca37
/model.6/cv1/conv/Conv_output_0: 3da1dd5d
/model.6/cv1/act/Sigmoid_output_0: 3c035610
/model.6/cv1/act/Mul_output_0: 3d121e72
/model.22/Unsqueeze_10_output_0: 3e1d4449
/model.22/Unsqueeze_9_output_0: 3e1d4449
/model.22/dfl/Softmax_output_0: 3be1dcd0
/model.22/dfl/Transpose_output_0: 3e052247
/model.22/Add_11_output_0: 3fa09c00
/model.22/Expand_output_0: 3f204a85
/model.6/Split_output_0: 3d12ce45
ONNXTRT_ShapeShuffle_277_output: 3c010a14
/model.22/Transpose_output_0: 3f204a85
ONNXTRT_Broadcast_output: 3b810a14
/model.6/Split_output_1: 3c3ceef0
/model.6/m.0/cv1/conv/Conv_output_0: 3d58572b
/model.6/m.0/cv1/act/Sigmoid_output_0: 3c00934a
/model.6/m.0/cv1/act/Mul_output_0: 3c99e972
/model.6/m.0/cv2/conv/Conv_output_0: 3d3d7de3
/model.6/m.0/cv2/act/Sigmoid_output_0: 3bff9657
/model.6/m.0/cv2/act/Mul_output_0: 3cbe6988
/model.6/m.0/Add_output_0: 3d2ec454
/model.6/m.1/cv1/conv/Conv_output_0: 3d65d437
/model.6/m.1/cv1/act/Sigmoid_output_0: 3c010967
/model.6/m.1/cv1/act/Mul_output_0: 3c72e758
/model.6/m.1/cv2/conv/Conv_output_0: 3d97b39e
/model.6/m.1/cv2/act/Sigmoid_output_0: 3c09a339
/model.6/m.1/cv2/act/Mul_output_0: 3d444508
/model.6/m.1/Add_output_0: 3d6afa9d
/model.6/Concat_output_0: 3d455446
/model.6/cv2/conv/Conv_output_0: 3d73d609
/model.6/cv2/act/Sigmoid_output_0: 3c0b256d
/model.6/cv2/act/Mul_output_0: 3c9a15fe
/model.7/conv/Conv_output_0: 3d7b963d
/model.7/act/Sigmoid_output_0: 3c010e38
/model.7/act/Mul_output_0: 3cd40ca2
/model.8/cv1/conv/Conv_output_0: 3da7d69a
/model.8/cv1/act/Sigmoid_output_0: 3c021412
/model.8/cv1/act/Mul_output_0: 3d14b793
/model.22/Unsqueeze_12_output_0: 3f204a85
/model.22/Sigmoid_output_0: 3bf92459
/model.22/Range_1_output_0: 3f1f4871
/model.22/Expand_5_output_0: 3e1d4449
/model.22/Expand_2_output_0: 3e9f4871
/model.22/Reshape_12_output_0: 3e9f4871
/model.8/Split_output_0: 3d467de6
output0: 40a083b1
/model.22/Sub_1_output_0: 3e68db5f
/model.22/Add_3_output_0: 3e9f4871
/model.8/Split_output_1: 3c592bbc
/model.8/m.0/cv1/conv/Conv_output_0: 3d8cfb28
/model.8/m.0/cv1/act/Sigmoid_output_0: 3c010cfc
/model.8/m.0/cv1/act/Mul_output_0: 3cc26fc3
/model.8/m.0/cv2/conv/Conv_output_0: 3dee0a25
/model.8/m.0/cv2/act/Sigmoid_output_0: 3c075ebb
/model.8/m.0/cv2/act/Mul_output_0: 3d6a3592
/model.8/m.0/Add_output_0: 3dc13de2
/model.8/Concat_output_0: 3d261d21
/model.8/cv2/conv/Conv_output_0: 3dc15503
/model.8/cv2/act/Sigmoid_output_0: 3c01d3a6
/model.8/cv2/act/Mul_output_0: 3d1645fe
/model.9/cv1/conv/Conv_output_0: 3da63002
/model.9/cv1/act/Sigmoid_output_0: 3c01121d
/model.9/cv1/act/Mul_output_0: 3d93a92e
/model.9/m/MaxPool_output_0: 3d93a92e
/model.9/m_1/MaxPool_output_0: 3d93a92e
/model.9/m_2/MaxPool_output_0: 3d93a92e
/model.9/Concat_output_0: 3e102fe9
/model.9/cv2/conv/Conv_output_0: 3d8d7277
/model.9/cv2/act/Sigmoid_output_0: 3bfb47d6
/model.9/cv2/act/Mul_output_0: 3c52da97
/model.10/Resize_output_0: 3c52da97
/model.11/Concat_output_0: 3c9a15fe
/model.12/cv1/conv/Conv_output_0: 3d8249ea
/model.12/cv1/act/Sigmoid_output_0: 3c00fd16
/model.12/cv1/act/Mul_output_0: 3ce75cc9
/model.22/Split_1_output_0: 3e052247
/model.22/Reshape_16_output_0: 3e1d4449
/model.22/Range_4_output_0: 3e193bf8
/model.22/Expand_4_output_0: 3e1d4449
/model.22/Reshape_5_output_0: 3f204a85
ONNXTRT_Broadcast_460_output: 3c810a14
/model.12/Split_output_0: 3ca491ae
/model.22/Add_1_output_0: 3f204a85
/model.22/Concat_22_output_0: 3f204a85
/model.22/Add_2_output_0: 3d810a14
/model.12/Split_output_1: 3ce6e634
/model.12/m.0/cv1/conv/Conv_output_0: 3d787088
/model.12/m.0/cv1/act/Sigmoid_output_0: 3c010c47
/model.12/m.0/cv1/act/Mul_output_0: 3c4e07c1
/model.12/m.0/cv2/conv/Conv_output_0: 3d77fa02
/model.12/m.0/cv2/act/Sigmoid_output_0: 3c0110ee
/model.12/m.0/cv2/act/Mul_output_0: 3c9982e8
/model.12/Concat_output_0: 3c9982e8
/model.12/cv2/conv/Conv_output_0: 3d8adb13
/model.12/cv2/act/Sigmoid_output_0: 3c013218
/model.12/cv2/act/Mul_output_0: 3cd4d758
/model.13/Resize_output_0: 3cd4d758
/model.14/Concat_output_0: 3c8013a9
/model.15/cv1/conv/Conv_output_0: 3d6c859a
/model.15/cv1/act/Sigmoid_output_0: 3c009ad1
/model.15/cv1/act/Mul_output_0: 3cc32300
/model.22/dfl/conv/Conv_output_0: 3de8156a
ONNXTRT_ShapeShuffle_199_output: 3c010a14
ONNXTRT_Broadcast_189_output: 3d810a14
/model.22/Concat_15_output_0: 3e9f4871
/model.22/Range_2_output_0: 3e9d4449
ONNXTRT_Broadcast_467_output: 3e810a14
/model.15/Split_output_0: 3cc32300
/model.22/Constant_16_output_0_output: 3b810a14
/model.22/Squeeze_1_output_0_output: 3e010a14
ONNXTRT_Broadcast_201_output: 3b810a14
/model.15/Split_output_1: 3cc22d21
/model.15/m.0/cv1/conv/Conv_output_0: 3d3663c3
/model.15/m.0/cv1/act/Sigmoid_output_0: 3c00c587
/model.15/m.0/cv1/act/Mul_output_0: 3c5b6e83
/model.15/m.0/cv2/conv/Conv_output_0: 3d65d1a1
/model.15/m.0/cv2/act/Sigmoid_output_0: 3c01a4d8
/model.15/m.0/cv2/act/Mul_output_0: 3d103952
/model.15/Concat_output_0: 3ce683cc
/model.15/cv2/conv/Conv_output_0: 3d611675
/model.15/cv2/act/Sigmoid_output_0: 3c00834b
/model.15/cv2/act/Mul_output_0: 3cb268d5
/model.16/conv/Conv_output_0: 3d8c6b26
/model.16/act/Sigmoid_output_0: 3c00f1a2
/model.16/act/Mul_output_0: 3d0340f6
/model.17/Concat_output_0: 3d0340f6
/model.18/cv1/conv/Conv_output_0: 3d9bed6a
/model.18/cv1/act/Sigmoid_output_0: 3c011222
/model.18/cv1/act/Mul_output_0: 3cea8da3
ONNXTRT_ShapeShuffle_264_output: 0
/model.22/Reshape_11_output_0: 3e9f4871
(Unnamed Layer* 466) [Constant]_output: 0
ONNXTRT_ShapeShuffle_211_output: 3c010a14
/model.22/Slice_output_0: 3de6a857
/model.22/Constant_67_output_0_output: 3c810a14
/model.18/Split_output_0: 3cd53ff3
/model.22/Add_output_0: 3f204a85
/model.22/Unsqueeze_7_output_0: 3e9f4871
ONNXTRT_Broadcast_267_output: 3e010a14
/model.18/Split_output_1: 3cea8da3
/model.18/m.0/cv1/conv/Conv_output_0: 3d94c930
/model.18/m.0/cv1/act/Sigmoid_output_0: 3c00fb50
/model.18/m.0/cv1/act/Mul_output_0: 3ca76cfe
/model.18/m.0/cv2/conv/Conv_output_0: 3dd14dea
/model.18/m.0/cv2/act/Sigmoid_output_0: 3c0111b1
/model.18/m.0/cv2/act/Mul_output_0: 3d27cf12
/model.18/Concat_output_0: 3d275db5
/model.18/cv2/conv/Conv_output_0: 3da80f7f
/model.18/cv2/act/Sigmoid_output_0: 3c01113a
/model.18/cv2/act/Mul_output_0: 3ced0c48
/model.19/conv/Conv_output_0: 3daed7a0
/model.19/act/Sigmoid_output_0: 3c02ec92
/model.19/act/Mul_output_0: 3cb22b10
/model.20/Concat_output_0: 3cb22b10
/model.21/cv1/conv/Conv_output_0: 3dda88fc
/model.21/cv1/act/Sigmoid_output_0: 3c021198
/model.21/cv1/act/Mul_output_0: 3d017785
/model.22/dfl/Softmax_output: 3be1dcd0
/model.22/Concat_23_output_0: 3e810a14
/model.22/Reshape_10_output_0: 3e9f4871
/model.22/Add_10_output_0: 3f21f7a4
ONNXTRT_ShapeShuffle_133_output: 3c010a14
/model.22/Expand_1_output_0: 3f204a85
/model.21/Split_output_0: 3d01d504
/model.22/dfl/Reshape_output_0: 3e052247
/model.22/Add_5_output_0: 3e010a14
ONNXTRT_ShapeShuffle_289_output: 3c010a14
/model.21/Split_output_1: 3cd6709a
/model.21/m.0/cv1/conv/Conv_output_0: 3dbf1185
/model.21/m.0/cv1/act/Sigmoid_output_0: 3c000cd2
/model.21/m.0/cv1/act/Mul_output_0: 3c90a438
/model.21/m.0/cv2/conv/Conv_output_0: 3dbfac8e
/model.21/m.0/cv2/act/Sigmoid_output_0: 3c022282
/model.21/m.0/cv2/act/Mul_output_0: 3d89ef9e
/model.21/Concat_output_0: 3d825a16
/model.21/cv2/conv/Conv_output_0: 3e031ce3
/model.21/cv2/act/Sigmoid_output_0: 3c020d96
/model.21/cv2/act/Mul_output_0: 3de6542d
/model.22/cv2.0/cv2.0.0/conv/Conv_output_0: 3d9cd29a
/model.22/cv2.0/cv2.0.0/act/Sigmoid_output_0: 3c016f2e
/model.22/cv2.0/cv2.0.0/act/Mul_output_0: 3cd56c8b
/model.22/cv2.0/cv2.0.1/conv/Conv_output_0: 3e485f56
/model.22/cv2.0/cv2.0.1/act/Sigmoid_output_0: 3c010a14
/model.22/cv2.0/cv2.0.1/act/Mul_output_0: 3e138e1c
/model.22/cv2.0/cv2.0.2/Conv_output_0: 3dc42e38
/model.22/cv3.0/cv3.0.0/conv/Conv_output_0: 3d825605
/model.22/cv3.0/cv3.0.0/act/Sigmoid_output_0: 3c00d004
/model.22/cv3.0/cv3.0.0/act/Mul_output_0: 3ce80d98
/model.22/cv3.0/cv3.0.1/conv/Conv_output_0: 3dc4dbe8
/model.22/cv3.0/cv3.0.1/act/Sigmoid_output_0: 3c021420
/model.22/cv3.0/cv3.0.1/act/Mul_output_0: 3d133c7b
/model.22/cv3.0/cv3.0.2/Conv_output_0: 3e512aae
/model.22/Concat_output_0: 3e2b8e52
/model.22/cv2.1/cv2.1.0/conv/Conv_output_0: 3e02fef3
/model.22/cv2.1/cv2.1.0/act/Sigmoid_output_0: 3c0110bf
/model.22/cv2.1/cv2.1.0/act/Mul_output_0: 3d4b68b2
/model.22/cv2.1/cv2.1.1/conv/Conv_output_0: 3e3ca538
/model.22/cv2.1/cv2.1.1/act/Sigmoid_output_0: 3c010a14
/model.22/cv2.1/cv2.1.1/act/Mul_output_0: 3e11e30e
/model.22/cv2.1/cv2.1.2/Conv_output_0: 3dc4c07e
/model.22/cv3.1/cv3.1.0/conv/Conv_output_0: 3db41545
/model.22/cv3.1/cv3.1.0/act/Sigmoid_output_0: 3c01cdf6
/model.22/cv3.1/cv3.1.0/act/Mul_output_0: 3cc066c4
/model.22/cv3.1/cv3.1.1/conv/Conv_output_0: 3dc6ef04
/model.22/cv3.1/cv3.1.1/act/Sigmoid_output_0: 3c01cf58
/model.22/cv3.1/cv3.1.1/act/Mul_output_0: 3cfe4f0f
/model.22/cv3.1/cv3.1.2/Conv_output_0: 3e296ee3
/model.22/Concat_1_output_0: 3e1aaa99
/model.22/cv2.2/cv2.2.0/conv/Conv_output_0: 3e3c0778
/model.22/cv2.2/cv2.2.0/act/Sigmoid_output_0: 3c0ac4fe
/model.22/cv2.2/cv2.2.0/act/Mul_output_0: 3dc83c5a
/model.22/cv2.2/cv2.2.1/conv/Conv_output_0: 3eb6891b
/model.22/cv2.2/cv2.2.1/act/Sigmoid_output_0: 3c010a14
/model.22/cv2.2/cv2.2.1/act/Mul_output_0: 3e7d2ed5
/model.22/cv2.2/cv2.2.2/Conv_output_0: 3e34c250
/model.22/cv3.2/cv3.2.0/conv/Conv_output_0: 3db5b851
/model.22/cv3.2/cv3.2.0/act/Sigmoid_output_0: 3c062ee4
/model.22/cv3.2/cv3.2.0/act/Mul_output_0: 3db65850
/model.22/cv3.2/cv3.2.1/conv/Conv_output_0: 3db1c70d
/model.22/cv3.2/cv3.2.1/act/Sigmoid_output_0: 3bf28ff9
/model.22/cv3.2/cv3.2.1/act/Mul_output_0: 3da70c5f
/model.22/cv3.2/cv3.2.2/Conv_output_0: 3db5205d
/model.22/Concat_2_output_0: 3e0eb885
/model.22/Reshape_15_output_0: 3e1d4449
/model.22/Split_1_output_1: 3e4479d9
(Unnamed Layer* 548) [Constant]_output: 0
/model.22/Add_7_output_0: 3e1d4449
(Unnamed Layer* 384) [Constant]_output: 0
ONNXTRT_Broadcast_135_output: 3b810a14
/model.22/Reshape_17_output_0: 3e1d4449
/model.22/Reshape_7_output_0: 3f204a85
/model.22/Reshape_output_0: 3e2b8e52
/model.22/Reshape_1_output_0: 3e1aaa99
/model.22/Reshape_2_output_0: 3e0eb885
/model.22/Concat_6_output_0: 3e25e71d
/model.22/Expand_3_output_0: 3e9f4871
ONNXTRT_Broadcast_291_output: 3b810a14
/model.22/Unsqueeze_6_output_0: 3e9f4871
/model.22/Range_5_output_0: 3e193bf8
/model.22/Concat_10_output_0: 3f204a85
/model.22/Constant_14_output_0_output: 0
/model.22/Constant_15_output_0_output: 3c010a14
/model.22/dfl/Reshape_1_output_0: 3de8156a
/model.22/Sub_output_0: 3f21540f
/model.22/Add_6_output_0: 3e1d4449
/model.22/Unsqueeze_4_output_0: 3f204a85
/model.22/ConstantOfShape_1_output_0: 0
/model.22/ConstantOfShape_output_0: 0
/model.22/Transpose_1_output_0: 3e810a14
/model.22/Range_output_0: 3f1f4871
ONNXTRT_ShapeShuffle_122_output: 3c010a14
